TRT-7100-EntropyCalibration2
Input: 3c010a14
FeatureExtractor/InceptionV2/InceptionV2/Conv2d_1a_7x7/separable_conv2d/depthwise: 3e033a69
FeatureExtractor/InceptionV2/InceptionV2/Conv2d_1a_7x7/separable_conv2d: 3dfdfab9
FeatureExtractor/InceptionV2/InceptionV2/Conv2d_1a_7x7/BatchNorm/FusedBatchNorm: 3e552fb9
FeatureExtractor/InceptionV2/InceptionV2/Conv2d_1a_7x7/Relu6: 3d418306
FeatureExtractor/InceptionV2/InceptionV2/MaxPool_2a_3x3/MaxPool: 3d418f1e
FeatureExtractor/InceptionV2/InceptionV2/Conv2d_2b_1x1/Conv2D: 3e7c85f6
FeatureExtractor/InceptionV2/InceptionV2/Conv2d_2b_1x1/BatchNorm/FusedBatchNorm: 3e477ae0
FeatureExtractor/InceptionV2/InceptionV2/Conv2d_2b_1x1/Relu6: 3d418306
FeatureExtractor/InceptionV2/InceptionV2/Conv2d_2c_3x3/Conv2D: 3e0fea46
FeatureExtractor/InceptionV2/InceptionV2/Conv2d_2c_3x3/BatchNorm/FusedBatchNorm: 3de69c20
FeatureExtractor/InceptionV2/InceptionV2/Conv2d_2c_3x3/Relu6: 3d418306
FeatureExtractor/InceptionV2/InceptionV2/MaxPool_3a_3x3/MaxPool: 3d418f1e
FeatureExtractor/InceptionV2/InceptionV2/Mixed_3b/Branch_0/Conv2d_0a_1x1/Conv2D: 3dbf1fde
FeatureExtractor/InceptionV2/InceptionV2/Mixed_3b/Branch_0/Conv2d_0a_1x1/BatchNorm/FusedBatchNorm: 3d955afe
FeatureExtractor/InceptionV2/InceptionV2/Mixed_3b/Branch_0/Conv2d_0a_1x1/Relu6: 3d418306
FeatureExtractor/InceptionV2/InceptionV2/Mixed_3b/Branch_1/Conv2d_0a_1x1/Conv2D: 3dd0b1fd
FeatureExtractor/InceptionV2/InceptionV2/Mixed_3b/Branch_1/Conv2d_0a_1x1/BatchNorm/FusedBatchNorm: 3dacc89a
FeatureExtractor/InceptionV2/InceptionV2/Mixed_3b/Branch_1/Conv2d_0a_1x1/Relu6: 3d418306
FeatureExtractor/InceptionV2/InceptionV2/Mixed_3b/Branch_1/Conv2d_0b_3x3/Conv2D: 3da77cc9
FeatureExtractor/InceptionV2/InceptionV2/Mixed_3b/Branch_1/Conv2d_0b_3x3/BatchNorm/FusedBatchNorm: 3d9af49e
FeatureExtractor/InceptionV2/InceptionV2/Mixed_3b/Branch_1/Conv2d_0b_3x3/Relu6: 3d418306
FeatureExtractor/InceptionV2/InceptionV2/Mixed_3b/Branch_2/Conv2d_0a_1x1/Conv2D: 3e1683fc
FeatureExtractor/InceptionV2/InceptionV2/Mixed_3b/Branch_2/Conv2d_0a_1x1/BatchNorm/FusedBatchNorm: 3dba0b08
FeatureExtractor/InceptionV2/InceptionV2/Mixed_3b/Branch_2/Conv2d_0a_1x1/Relu6: 3d418306
FeatureExtractor/InceptionV2/InceptionV2/Mixed_3b/Branch_2/Conv2d_0b_3x3/Conv2D: 3e019042
FeatureExtractor/InceptionV2/InceptionV2/Mixed_3b/Branch_2/Conv2d_0b_3x3/BatchNorm/FusedBatchNorm: 3dc27d49
FeatureExtractor/InceptionV2/InceptionV2/Mixed_3b/Branch_2/Conv2d_0b_3x3/Relu6: 3d418306
FeatureExtractor/InceptionV2/InceptionV2/Mixed_3b/Branch_2/Conv2d_0c_3x3/Conv2D: 3e185f01
FeatureExtractor/InceptionV2/InceptionV2/Mixed_3b/Branch_2/Conv2d_0c_3x3/BatchNorm/FusedBatchNorm: 3e0b48b8
FeatureExtractor/InceptionV2/InceptionV2/Mixed_3b/Branch_2/Conv2d_0c_3x3/Relu6: 3d418306
FeatureExtractor/InceptionV2/InceptionV2/Mixed_3b/Branch_3/AvgPool_0a_3x3/AvgPool: 3d418f1e
FeatureExtractor/InceptionV2/InceptionV2/Mixed_3b/Branch_3/Conv2d_0b_1x1/Conv2D: 3deed28e
FeatureExtractor/InceptionV2/InceptionV2/Mixed_3b/Branch_3/Conv2d_0b_1x1/BatchNorm/FusedBatchNorm: 3de1e23e
FeatureExtractor/InceptionV2/InceptionV2/Mixed_3b/Branch_3/Conv2d_0b_1x1/Relu6: 3d418306
FeatureExtractor/InceptionV2/InceptionV2/Mixed_3b/concat: 3d418f1e
FeatureExtractor/InceptionV2/InceptionV2/Mixed_3c/Branch_0/Conv2d_0a_1x1/Conv2D: 3d5585b6
FeatureExtractor/InceptionV2/InceptionV2/Mixed_3c/Branch_0/Conv2d_0a_1x1/BatchNorm/FusedBatchNorm: 3d63b2b8
FeatureExtractor/InceptionV2/InceptionV2/Mixed_3c/Branch_0/Conv2d_0a_1x1/Relu6: 3d418306
FeatureExtractor/InceptionV2/InceptionV2/Mixed_3c/Branch_1/Conv2d_0a_1x1/Conv2D: 3db890c3
FeatureExtractor/InceptionV2/InceptionV2/Mixed_3c/Branch_1/Conv2d_0a_1x1/BatchNorm/FusedBatchNorm: 3d894679
FeatureExtractor/InceptionV2/InceptionV2/Mixed_3c/Branch_1/Conv2d_0a_1x1/Relu6: 3d418306
FeatureExtractor/InceptionV2/InceptionV2/Mixed_3c/Branch_1/Conv2d_0b_3x3/Conv2D: 3d7746cd
FeatureExtractor/InceptionV2/InceptionV2/Mixed_3c/Branch_1/Conv2d_0b_3x3/BatchNorm/FusedBatchNorm: 3d61d1ff
FeatureExtractor/InceptionV2/InceptionV2/Mixed_3c/Branch_1/Conv2d_0b_3x3/Relu6: 3d418306
FeatureExtractor/InceptionV2/InceptionV2/Mixed_3c/Branch_2/Conv2d_0a_1x1/Conv2D: 3db4800b
FeatureExtractor/InceptionV2/InceptionV2/Mixed_3c/Branch_2/Conv2d_0a_1x1/BatchNorm/FusedBatchNorm: 3d9ddd3a
FeatureExtractor/InceptionV2/InceptionV2/Mixed_3c/Branch_2/Conv2d_0a_1x1/Relu6: 3d418306
FeatureExtractor/InceptionV2/InceptionV2/Mixed_3c/Branch_2/Conv2d_0b_3x3/Conv2D: 3dacbf91
FeatureExtractor/InceptionV2/InceptionV2/Mixed_3c/Branch_2/Conv2d_0b_3x3/BatchNorm/FusedBatchNorm: 3d9d8b86
FeatureExtractor/InceptionV2/InceptionV2/Mixed_3c/Branch_2/Conv2d_0b_3x3/Relu6: 3d418306
FeatureExtractor/InceptionV2/InceptionV2/Mixed_3c/Branch_2/Conv2d_0c_3x3/Conv2D: 3d887c9e
FeatureExtractor/InceptionV2/InceptionV2/Mixed_3c/Branch_2/Conv2d_0c_3x3/BatchNorm/FusedBatchNorm: 3d83a028
FeatureExtractor/InceptionV2/InceptionV2/Mixed_3c/Branch_2/Conv2d_0c_3x3/Relu6: 3d418306
FeatureExtractor/InceptionV2/InceptionV2/Mixed_3c/Branch_3/AvgPool_0a_3x3/AvgPool: 3d418f1e
FeatureExtractor/InceptionV2/InceptionV2/Mixed_3c/Branch_3/Conv2d_0b_1x1/Conv2D: 3d8b188a
FeatureExtractor/InceptionV2/InceptionV2/Mixed_3c/Branch_3/Conv2d_0b_1x1/BatchNorm/FusedBatchNorm: 3d8f4805
FeatureExtractor/InceptionV2/InceptionV2/Mixed_3c/Branch_3/Conv2d_0b_1x1/Relu6: 3d418306
FeatureExtractor/InceptionV2/InceptionV2/Mixed_3c/concat: 3d418f1e
FeatureExtractor/InceptionV2/InceptionV2/Mixed_4a/Branch_0/Conv2d_0a_1x1/Conv2D: 3dc1613a
FeatureExtractor/InceptionV2/InceptionV2/Mixed_4a/Branch_0/Conv2d_0a_1x1/BatchNorm/FusedBatchNorm: 3daa78b4
FeatureExtractor/InceptionV2/InceptionV2/Mixed_4a/Branch_0/Conv2d_0a_1x1/Relu6: 3d418306
FeatureExtractor/InceptionV2/InceptionV2/Mixed_4a/Branch_0/Conv2d_1a_3x3/Conv2D: 3e0d21b3
FeatureExtractor/InceptionV2/InceptionV2/Mixed_4a/Branch_0/Conv2d_1a_3x3/BatchNorm/FusedBatchNorm: 3e119957
FeatureExtractor/InceptionV2/InceptionV2/Mixed_4a/Branch_0/Conv2d_1a_3x3/Relu6: 3d418306
FeatureExtractor/InceptionV2/InceptionV2/Mixed_4a/Branch_1/Conv2d_0a_1x1/Conv2D: 3d9e0444
FeatureExtractor/InceptionV2/InceptionV2/Mixed_4a/Branch_1/Conv2d_0a_1x1/BatchNorm/FusedBatchNorm: 3d875588
FeatureExtractor/InceptionV2/InceptionV2/Mixed_4a/Branch_1/Conv2d_0a_1x1/Relu6: 3d418306
FeatureExtractor/InceptionV2/InceptionV2/Mixed_4a/Branch_1/Conv2d_0b_3x3/Conv2D: 3dbe24de
FeatureExtractor/InceptionV2/InceptionV2/Mixed_4a/Branch_1/Conv2d_0b_3x3/BatchNorm/FusedBatchNorm: 3db25464
FeatureExtractor/InceptionV2/InceptionV2/Mixed_4a/Branch_1/Conv2d_0b_3x3/Relu6: 3d418306
FeatureExtractor/InceptionV2/InceptionV2/Mixed_4a/Branch_1/Conv2d_1a_3x3/Conv2D: 3dcedd06
FeatureExtractor/InceptionV2/InceptionV2/Mixed_4a/Branch_1/Conv2d_1a_3x3/BatchNorm/FusedBatchNorm: 3daeb090
FeatureExtractor/InceptionV2/InceptionV2/Mixed_4a/Branch_1/Conv2d_1a_3x3/Relu6: 3d418306
FeatureExtractor/InceptionV2/InceptionV2/Mixed_4a/Branch_2/MaxPool_1a_3x3/MaxPool: 3d418f1e
FeatureExtractor/InceptionV2/InceptionV2/Mixed_4a/concat: 3d418f1e
FeatureExtractor/InceptionV2/InceptionV2/Mixed_4b/Branch_0/Conv2d_0a_1x1/Conv2D: 3dbdace4
FeatureExtractor/InceptionV2/InceptionV2/Mixed_4b/Branch_0/Conv2d_0a_1x1/BatchNorm/FusedBatchNorm: 3db84749
FeatureExtractor/InceptionV2/InceptionV2/Mixed_4b/Branch_0/Conv2d_0a_1x1/Relu6: 3d418306
FeatureExtractor/InceptionV2/InceptionV2/Mixed_4b/Branch_1/Conv2d_0a_1x1/Conv2D: 3d9359cc
FeatureExtractor/InceptionV2/InceptionV2/Mixed_4b/Branch_1/Conv2d_0a_1x1/BatchNorm/FusedBatchNorm: 3da4ddd7
FeatureExtractor/InceptionV2/InceptionV2/Mixed_4b/Branch_1/Conv2d_0a_1x1/Relu6: 3d418306
FeatureExtractor/InceptionV2/InceptionV2/Mixed_4b/Branch_1/Conv2d_0b_3x3/Conv2D: 3dee2286
FeatureExtractor/InceptionV2/InceptionV2/Mixed_4b/Branch_1/Conv2d_0b_3x3/BatchNorm/FusedBatchNorm: 3da29747
FeatureExtractor/InceptionV2/InceptionV2/Mixed_4b/Branch_1/Conv2d_0b_3x3/Relu6: 3d418306
FeatureExtractor/InceptionV2/InceptionV2/Mixed_4b/Branch_2/Conv2d_0a_1x1/Conv2D: 3dca5ecd
FeatureExtractor/InceptionV2/InceptionV2/Mixed_4b/Branch_2/Conv2d_0a_1x1/BatchNorm/FusedBatchNorm: 3d99df89
FeatureExtractor/InceptionV2/InceptionV2/Mixed_4b/Branch_2/Conv2d_0a_1x1/Relu6: 3d418306
FeatureExtractor/InceptionV2/InceptionV2/Mixed_4b/Branch_2/Conv2d_0b_3x3/Conv2D: 3dda6746
FeatureExtractor/InceptionV2/InceptionV2/Mixed_4b/Branch_2/Conv2d_0b_3x3/BatchNorm/FusedBatchNorm: 3dcc84a6
FeatureExtractor/InceptionV2/InceptionV2/Mixed_4b/Branch_2/Conv2d_0b_3x3/Relu6: 3d418306
FeatureExtractor/InceptionV2/InceptionV2/Mixed_4b/Branch_2/Conv2d_0c_3x3/Conv2D: 3dbcfb0f
FeatureExtractor/InceptionV2/InceptionV2/Mixed_4b/Branch_2/Conv2d_0c_3x3/BatchNorm/FusedBatchNorm: 3da13e66
FeatureExtractor/InceptionV2/InceptionV2/Mixed_4b/Branch_2/Conv2d_0c_3x3/Relu6: 3d418306
FeatureExtractor/InceptionV2/InceptionV2/Mixed_4b/Branch_3/AvgPool_0a_3x3/AvgPool: 3d418f1e
FeatureExtractor/InceptionV2/InceptionV2/Mixed_4b/Branch_3/Conv2d_0b_1x1/Conv2D: 3e15a3ca
FeatureExtractor/InceptionV2/InceptionV2/Mixed_4b/Branch_3/Conv2d_0b_1x1/BatchNorm/FusedBatchNorm: 3e100080
FeatureExtractor/InceptionV2/InceptionV2/Mixed_4b/Branch_3/Conv2d_0b_1x1/Relu6: 3d418306
FeatureExtractor/InceptionV2/InceptionV2/Mixed_4b/concat: 3d418f1e
FeatureExtractor/InceptionV2/InceptionV2/Mixed_4c/Branch_0/Conv2d_0a_1x1/Conv2D: 3db4dcec
FeatureExtractor/InceptionV2/InceptionV2/Mixed_4c/Branch_0/Conv2d_0a_1x1/BatchNorm/FusedBatchNorm: 3d38140f
FeatureExtractor/InceptionV2/InceptionV2/Mixed_4c/Branch_0/Conv2d_0a_1x1/Relu6: 3d418306
FeatureExtractor/InceptionV2/InceptionV2/Mixed_4c/Branch_1/Conv2d_0a_1x1/Conv2D: 3e1c0d74
FeatureExtractor/InceptionV2/InceptionV2/Mixed_4c/Branch_1/Conv2d_0a_1x1/BatchNorm/FusedBatchNorm: 3da46790
FeatureExtractor/InceptionV2/InceptionV2/Mixed_4c/Branch_1/Conv2d_0a_1x1/Relu6: 3d418306
FeatureExtractor/InceptionV2/InceptionV2/Mixed_4c/Branch_1/Conv2d_0b_3x3/Conv2D: 3da1687d
FeatureExtractor/InceptionV2/InceptionV2/Mixed_4c/Branch_1/Conv2d_0b_3x3/BatchNorm/FusedBatchNorm: 3da4d005
FeatureExtractor/InceptionV2/InceptionV2/Mixed_4c/Branch_1/Conv2d_0b_3x3/Relu6: 3d418306
FeatureExtractor/InceptionV2/InceptionV2/Mixed_4c/Branch_2/Conv2d_0a_1x1/Conv2D: 3e7af531
FeatureExtractor/InceptionV2/InceptionV2/Mixed_4c/Branch_2/Conv2d_0a_1x1/BatchNorm/FusedBatchNorm: 3e5487ba
FeatureExtractor/InceptionV2/InceptionV2/Mixed_4c/Branch_2/Conv2d_0a_1x1/Relu6: 3d418306
FeatureExtractor/InceptionV2/InceptionV2/Mixed_4c/Branch_2/Conv2d_0b_3x3/Conv2D: 3e6721b5
FeatureExtractor/InceptionV2/InceptionV2/Mixed_4c/Branch_2/Conv2d_0b_3x3/BatchNorm/FusedBatchNorm: 3e4e8918
FeatureExtractor/InceptionV2/InceptionV2/Mixed_4c/Branch_2/Conv2d_0b_3x3/Relu6: 3d418306
FeatureExtractor/InceptionV2/InceptionV2/Mixed_4c/Branch_2/Conv2d_0c_3x3/Conv2D: 3e1a173f
FeatureExtractor/InceptionV2/InceptionV2/Mixed_4c/Branch_2/Conv2d_0c_3x3/BatchNorm/FusedBatchNorm: 3e0e7bb1
FeatureExtractor/InceptionV2/InceptionV2/Mixed_4c/Branch_2/Conv2d_0c_3x3/Relu6: 3d418306
FeatureExtractor/InceptionV2/InceptionV2/Mixed_4c/Branch_3/AvgPool_0a_3x3/AvgPool: 3d418f1e
FeatureExtractor/InceptionV2/InceptionV2/Mixed_4c/Branch_3/Conv2d_0b_1x1/Conv2D: 3e31388d
FeatureExtractor/InceptionV2/InceptionV2/Mixed_4c/Branch_3/Conv2d_0b_1x1/BatchNorm/FusedBatchNorm: 3e165900
FeatureExtractor/InceptionV2/InceptionV2/Mixed_4c/Branch_3/Conv2d_0b_1x1/Relu6: 3d418306
FeatureExtractor/InceptionV2/InceptionV2/Mixed_4c/concat: 3d418f1e
BoxPredictor_0/BoxEncodingPredictor/Conv2D: 3ddd9e7f
BoxPredictor_0/BoxEncodingPredictor/BiasAdd: 3de9da7b
(Unnamed Layer* 204) [Shuffle]_output: 3de9da7b
Squeeze: 3de9da7b
FeatureExtractor/InceptionV2/InceptionV2/Mixed_4d/Branch_0/Conv2d_0a_1x1/Conv2D: 3d7241c1
FeatureExtractor/InceptionV2/InceptionV2/Mixed_4d/Branch_0/Conv2d_0a_1x1/BatchNorm/FusedBatchNorm: 3d738643
FeatureExtractor/InceptionV2/InceptionV2/Mixed_4d/Branch_0/Conv2d_0a_1x1/Relu6: 3d418306
FeatureExtractor/InceptionV2/InceptionV2/Mixed_4d/Branch_1/Conv2d_0a_1x1/Conv2D: 3d9f075e
FeatureExtractor/InceptionV2/InceptionV2/Mixed_4d/Branch_1/Conv2d_0a_1x1/BatchNorm/FusedBatchNorm: 3db0ef5e
FeatureExtractor/InceptionV2/InceptionV2/Mixed_4d/Branch_1/Conv2d_0a_1x1/Relu6: 3d418306
FeatureExtractor/InceptionV2/InceptionV2/Mixed_4d/Branch_1/Conv2d_0b_3x3/Conv2D: 3d9ebd76
FeatureExtractor/InceptionV2/InceptionV2/Mixed_4d/Branch_1/Conv2d_0b_3x3/BatchNorm/FusedBatchNorm: 3da287f3
FeatureExtractor/InceptionV2/InceptionV2/Mixed_4d/Branch_1/Conv2d_0b_3x3/Relu6: 3d418306
FeatureExtractor/InceptionV2/InceptionV2/Mixed_4d/Branch_2/Conv2d_0a_1x1/Conv2D: 3db981b5
FeatureExtractor/InceptionV2/InceptionV2/Mixed_4d/Branch_2/Conv2d_0a_1x1/BatchNorm/FusedBatchNorm: 3db4ab73
FeatureExtractor/InceptionV2/InceptionV2/Mixed_4d/Branch_2/Conv2d_0a_1x1/Relu6: 3d418306
FeatureExtractor/InceptionV2/InceptionV2/Mixed_4d/Branch_2/Conv2d_0b_3x3/Conv2D: 3e06846f
FeatureExtractor/InceptionV2/InceptionV2/Mixed_4d/Branch_2/Conv2d_0b_3x3/BatchNorm/FusedBatchNorm: 3db8a8bd
FeatureExtractor/InceptionV2/InceptionV2/Mixed_4d/Branch_2/Conv2d_0b_3x3/Relu6: 3d418306
FeatureExtractor/InceptionV2/InceptionV2/Mixed_4d/Branch_2/Conv2d_0c_3x3/Conv2D: 3d946125
FeatureExtractor/InceptionV2/InceptionV2/Mixed_4d/Branch_2/Conv2d_0c_3x3/BatchNorm/FusedBatchNorm: 3d929020
FeatureExtractor/InceptionV2/InceptionV2/Mixed_4d/Branch_2/Conv2d_0c_3x3/Relu6: 3d418306
FeatureExtractor/InceptionV2/InceptionV2/Mixed_4d/Branch_3/AvgPool_0a_3x3/AvgPool: 3d418f1e
FeatureExtractor/InceptionV2/InceptionV2/Mixed_4d/Branch_3/Conv2d_0b_1x1/Conv2D: 3dd29163
FeatureExtractor/InceptionV2/InceptionV2/Mixed_4d/Branch_3/Conv2d_0b_1x1/BatchNorm/FusedBatchNorm: 3dd11661
FeatureExtractor/InceptionV2/InceptionV2/Mixed_4d/Branch_3/Conv2d_0b_1x1/Relu6: 3d418306
FeatureExtractor/InceptionV2/InceptionV2/Mixed_4d/concat: 3d418f1e
FeatureExtractor/InceptionV2/InceptionV2/Mixed_4e/Branch_0/Conv2d_0a_1x1/Conv2D: 3d8d5720
FeatureExtractor/InceptionV2/InceptionV2/Mixed_4e/Branch_0/Conv2d_0a_1x1/BatchNorm/FusedBatchNorm: 3d7fec85
FeatureExtractor/InceptionV2/InceptionV2/Mixed_4e/Branch_0/Conv2d_0a_1x1/Relu6: 3d418306
FeatureExtractor/InceptionV2/InceptionV2/Mixed_4e/Branch_1/Conv2d_0a_1x1/Conv2D: 3da1160b
FeatureExtractor/InceptionV2/InceptionV2/Mixed_4e/Branch_1/Conv2d_0a_1x1/BatchNorm/FusedBatchNorm: 3d91f9f6
FeatureExtractor/InceptionV2/InceptionV2/Mixed_4e/Branch_1/Conv2d_0a_1x1/Relu6: 3d418306
FeatureExtractor/InceptionV2/InceptionV2/Mixed_4e/Branch_1/Conv2d_0b_3x3/Conv2D: 3d8c2af8
FeatureExtractor/InceptionV2/InceptionV2/Mixed_4e/Branch_1/Conv2d_0b_3x3/BatchNorm/FusedBatchNorm: 3d8672d5
FeatureExtractor/InceptionV2/InceptionV2/Mixed_4e/Branch_1/Conv2d_0b_3x3/Relu6: 3d418306
FeatureExtractor/InceptionV2/InceptionV2/Mixed_4e/Branch_2/Conv2d_0a_1x1/Conv2D: 3db0ee0d
FeatureExtractor/InceptionV2/InceptionV2/Mixed_4e/Branch_2/Conv2d_0a_1x1/BatchNorm/FusedBatchNorm: 3d9ba2c5
FeatureExtractor/InceptionV2/InceptionV2/Mixed_4e/Branch_2/Conv2d_0a_1x1/Relu6: 3d418306
FeatureExtractor/InceptionV2/InceptionV2/Mixed_4e/Branch_2/Conv2d_0b_3x3/Conv2D: 3d9a6729
FeatureExtractor/InceptionV2/InceptionV2/Mixed_4e/Branch_2/Conv2d_0b_3x3/BatchNorm/FusedBatchNorm: 3d9317ba
FeatureExtractor/InceptionV2/InceptionV2/Mixed_4e/Branch_2/Conv2d_0b_3x3/Relu6: 3d418306
FeatureExtractor/InceptionV2/InceptionV2/Mixed_4e/Branch_2/Conv2d_0c_3x3/Conv2D: 3d94ae2d
FeatureExtractor/InceptionV2/InceptionV2/Mixed_4e/Branch_2/Conv2d_0c_3x3/BatchNorm/FusedBatchNorm: 3d7d5ba1
FeatureExtractor/InceptionV2/InceptionV2/Mixed_4e/Branch_2/Conv2d_0c_3x3/Relu6: 3d418306
FeatureExtractor/InceptionV2/InceptionV2/Mixed_4e/Branch_3/AvgPool_0a_3x3/AvgPool: 3d418f1e
FeatureExtractor/InceptionV2/InceptionV2/Mixed_4e/Branch_3/Conv2d_0b_1x1/Conv2D: 3d6d2f80
FeatureExtractor/InceptionV2/InceptionV2/Mixed_4e/Branch_3/Conv2d_0b_1x1/BatchNorm/FusedBatchNorm: 3d4fbcba
FeatureExtractor/InceptionV2/InceptionV2/Mixed_4e/Branch_3/Conv2d_0b_1x1/Relu6: 3d418306
FeatureExtractor/InceptionV2/InceptionV2/Mixed_4e/concat: 3d418f1e
FeatureExtractor/InceptionV2/InceptionV2/Mixed_5a/Branch_0/Conv2d_0a_1x1/Conv2D: 3d8c2de3
FeatureExtractor/InceptionV2/InceptionV2/Mixed_5a/Branch_0/Conv2d_0a_1x1/BatchNorm/FusedBatchNorm: 3d8f9cf5
FeatureExtractor/InceptionV2/InceptionV2/Mixed_5a/Branch_0/Conv2d_0a_1x1/Relu6: 3d418306
FeatureExtractor/InceptionV2/InceptionV2/Mixed_5a/Branch_0/Conv2d_1a_3x3/Conv2D: 3da84bb0
FeatureExtractor/InceptionV2/InceptionV2/Mixed_5a/Branch_0/Conv2d_1a_3x3/BatchNorm/FusedBatchNorm: 3db688db
FeatureExtractor/InceptionV2/InceptionV2/Mixed_5a/Branch_0/Conv2d_1a_3x3/Relu6: 3d418306
FeatureExtractor/InceptionV2/InceptionV2/Mixed_5a/Branch_1/Conv2d_0a_1x1/Conv2D: 3db62365
FeatureExtractor/InceptionV2/InceptionV2/Mixed_5a/Branch_1/Conv2d_0a_1x1/BatchNorm/FusedBatchNorm: 3d92789f
FeatureExtractor/InceptionV2/InceptionV2/Mixed_5a/Branch_1/Conv2d_0a_1x1/Relu6: 3d418306
FeatureExtractor/InceptionV2/InceptionV2/Mixed_5a/Branch_1/Conv2d_0b_3x3/Conv2D: 3d9e7b2f
FeatureExtractor/InceptionV2/InceptionV2/Mixed_5a/Branch_1/Conv2d_0b_3x3/BatchNorm/FusedBatchNorm: 3db15d9a
FeatureExtractor/InceptionV2/InceptionV2/Mixed_5a/Branch_1/Conv2d_0b_3x3/Relu6: 3d418306
FeatureExtractor/InceptionV2/InceptionV2/Mixed_5a/Branch_1/Conv2d_1a_3x3/Conv2D: 3e0b2933
FeatureExtractor/InceptionV2/InceptionV2/Mixed_5a/Branch_1/Conv2d_1a_3x3/BatchNorm/FusedBatchNorm: 3e1386de
FeatureExtractor/InceptionV2/InceptionV2/Mixed_5a/Branch_1/Conv2d_1a_3x3/Relu6: 3d418306
FeatureExtractor/InceptionV2/InceptionV2/Mixed_5a/Branch_2/MaxPool_1a_3x3/MaxPool: 3d418f1e
FeatureExtractor/InceptionV2/InceptionV2/Mixed_5a/concat: 3d418f1e
FeatureExtractor/InceptionV2/InceptionV2/Mixed_5b/Branch_0/Conv2d_0a_1x1/Conv2D: 3dbf99c7
FeatureExtractor/InceptionV2/InceptionV2/Mixed_5b/Branch_0/Conv2d_0a_1x1/BatchNorm/FusedBatchNorm: 3daf62b3
FeatureExtractor/InceptionV2/InceptionV2/Mixed_5b/Branch_0/Conv2d_0a_1x1/Relu6: 3d418306
FeatureExtractor/InceptionV2/InceptionV2/Mixed_5b/Branch_1/Conv2d_0a_1x1/Conv2D: 3da63cd1
FeatureExtractor/InceptionV2/InceptionV2/Mixed_5b/Branch_1/Conv2d_0a_1x1/BatchNorm/FusedBatchNorm: 3d9d3dbd
FeatureExtractor/InceptionV2/InceptionV2/Mixed_5b/Branch_1/Conv2d_0a_1x1/Relu6: 3d418306
FeatureExtractor/InceptionV2/InceptionV2/Mixed_5b/Branch_1/Conv2d_0b_3x3/Conv2D: 3dfbba82
FeatureExtractor/InceptionV2/InceptionV2/Mixed_5b/Branch_1/Conv2d_0b_3x3/BatchNorm/FusedBatchNorm: 3e076692
FeatureExtractor/InceptionV2/InceptionV2/Mixed_5b/Branch_1/Conv2d_0b_3x3/Relu6: 3d418306
FeatureExtractor/InceptionV2/InceptionV2/Mixed_5b/Branch_2/Conv2d_0a_1x1/Conv2D: 3dace927
FeatureExtractor/InceptionV2/InceptionV2/Mixed_5b/Branch_2/Conv2d_0a_1x1/BatchNorm/FusedBatchNorm: 3da6b366
FeatureExtractor/InceptionV2/InceptionV2/Mixed_5b/Branch_2/Conv2d_0a_1x1/Relu6: 3d418306
FeatureExtractor/InceptionV2/InceptionV2/Mixed_5b/Branch_2/Conv2d_0b_3x3/Conv2D: 3dd8c5f3
FeatureExtractor/InceptionV2/InceptionV2/Mixed_5b/Branch_2/Conv2d_0b_3x3/BatchNorm/FusedBatchNorm: 3dc51371
FeatureExtractor/InceptionV2/InceptionV2/Mixed_5b/Branch_2/Conv2d_0b_3x3/Relu6: 3d418306
FeatureExtractor/InceptionV2/InceptionV2/Mixed_5b/Branch_2/Conv2d_0c_3x3/Conv2D: 3db9e63b
FeatureExtractor/InceptionV2/InceptionV2/Mixed_5b/Branch_2/Conv2d_0c_3x3/BatchNorm/FusedBatchNorm: 3db3e702
FeatureExtractor/InceptionV2/InceptionV2/Mixed_5b/Branch_2/Conv2d_0c_3x3/Relu6: 3d418306
FeatureExtractor/InceptionV2/InceptionV2/Mixed_5b/Branch_3/AvgPool_0a_3x3/AvgPool: 3d418f1e
FeatureExtractor/InceptionV2/InceptionV2/Mixed_5b/Branch_3/Conv2d_0b_1x1/Conv2D: 3de26372
FeatureExtractor/InceptionV2/InceptionV2/Mixed_5b/Branch_3/Conv2d_0b_1x1/BatchNorm/FusedBatchNorm: 3ddee7a6
FeatureExtractor/InceptionV2/InceptionV2/Mixed_5b/Branch_3/Conv2d_0b_1x1/Relu6: 3d418306
FeatureExtractor/InceptionV2/InceptionV2/Mixed_5b/concat: 3d418f1e
FeatureExtractor/InceptionV2/InceptionV2/Mixed_5c/Branch_0/Conv2d_0a_1x1/Conv2D: 3e36ce8a
FeatureExtractor/InceptionV2/InceptionV2/Mixed_5c/Branch_0/Conv2d_0a_1x1/BatchNorm/FusedBatchNorm: 3e30d1d4
FeatureExtractor/InceptionV2/InceptionV2/Mixed_5c/Branch_0/Conv2d_0a_1x1/Relu6: 3d418306
FeatureExtractor/InceptionV2/InceptionV2/Mixed_5c/Branch_1/Conv2d_0a_1x1/Conv2D: 3e82d758
FeatureExtractor/InceptionV2/InceptionV2/Mixed_5c/Branch_1/Conv2d_0a_1x1/BatchNorm/FusedBatchNorm: 3e9367e5
FeatureExtractor/InceptionV2/InceptionV2/Mixed_5c/Branch_1/Conv2d_0a_1x1/Relu6: 3d418306
FeatureExtractor/InceptionV2/InceptionV2/Mixed_5c/Branch_1/Conv2d_0b_3x3/Conv2D: 3e2a4a27
FeatureExtractor/InceptionV2/InceptionV2/Mixed_5c/Branch_1/Conv2d_0b_3x3/BatchNorm/FusedBatchNorm: 3e4e8c14
FeatureExtractor/InceptionV2/InceptionV2/Mixed_5c/Branch_1/Conv2d_0b_3x3/Relu6: 3d418306
FeatureExtractor/InceptionV2/InceptionV2/Mixed_5c/Branch_2/Conv2d_0a_1x1/Conv2D: 3e8a739e
FeatureExtractor/InceptionV2/InceptionV2/Mixed_5c/Branch_2/Conv2d_0a_1x1/BatchNorm/FusedBatchNorm: 3e92ca79
FeatureExtractor/InceptionV2/InceptionV2/Mixed_5c/Branch_2/Conv2d_0a_1x1/Relu6: 3d418306
FeatureExtractor/InceptionV2/InceptionV2/Mixed_5c/Branch_2/Conv2d_0b_3x3/Conv2D: 3e14d38b
FeatureExtractor/InceptionV2/InceptionV2/Mixed_5c/Branch_2/Conv2d_0b_3x3/BatchNorm/FusedBatchNorm: 3e1cff84
FeatureExtractor/InceptionV2/InceptionV2/Mixed_5c/Branch_2/Conv2d_0b_3x3/Relu6: 3d418306
FeatureExtractor/InceptionV2/InceptionV2/Mixed_5c/Branch_2/Conv2d_0c_3x3/Conv2D: 3e3fb23e
FeatureExtractor/InceptionV2/InceptionV2/Mixed_5c/Branch_2/Conv2d_0c_3x3/BatchNorm/FusedBatchNorm: 3e17f9b2
FeatureExtractor/InceptionV2/InceptionV2/Mixed_5c/Branch_2/Conv2d_0c_3x3/Relu6: 3d418306
FeatureExtractor/InceptionV2/InceptionV2/Mixed_5c/Branch_3/MaxPool_0a_3x3/MaxPool: 3d418f1e
FeatureExtractor/InceptionV2/InceptionV2/Mixed_5c/Branch_3/Conv2d_0b_1x1/Conv2D: 3e239394
FeatureExtractor/InceptionV2/InceptionV2/Mixed_5c/Branch_3/Conv2d_0b_1x1/BatchNorm/FusedBatchNorm: 3e11ef0c
FeatureExtractor/InceptionV2/InceptionV2/Mixed_5c/Branch_3/Conv2d_0b_1x1/Relu6: 3d418306
FeatureExtractor/InceptionV2/InceptionV2/Mixed_5c/concat: 3d418f1e
BoxPredictor_1/BoxEncodingPredictor/Conv2D: 3d597873
BoxPredictor_1/BoxEncodingPredictor/BiasAdd: 3d41fbfe
(Unnamed Layer* 391) [Shuffle]_output: 3d41fbfe
Squeeze_1: 3d41fbfe
FeatureExtractor/InceptionV2/Mixed_5c_1_Conv2d_2_1x1_256/Conv2D: 3e3153cc
FeatureExtractor/InceptionV2/Mixed_5c_1_Conv2d_2_1x1_256/BatchNorm/FusedBatchNorm: 3e1cd078
FeatureExtractor/InceptionV2/Mixed_5c_1_Conv2d_2_1x1_256/Relu6: 3d418306
FeatureExtractor/InceptionV2/Mixed_5c_2_Conv2d_2_3x3_s2_512/Conv2D: 3e4daf43
FeatureExtractor/InceptionV2/Mixed_5c_2_Conv2d_2_3x3_s2_512/BatchNorm/FusedBatchNorm: 3e3fead9
FeatureExtractor/InceptionV2/Mixed_5c_2_Conv2d_2_3x3_s2_512/Relu6: 3d418306
BoxPredictor_2/BoxEncodingPredictor/Conv2D: 3d14ad28
BoxPredictor_2/BoxEncodingPredictor/BiasAdd: 3d16a7be
(Unnamed Layer* 413) [Shuffle]_output: 3d16a7be
Squeeze_2: 3d16a7be
FeatureExtractor/InceptionV2/Mixed_5c_1_Conv2d_3_1x1_128/Conv2D: 3e2979f2
FeatureExtractor/InceptionV2/Mixed_5c_1_Conv2d_3_1x1_128/BatchNorm/FusedBatchNorm: 3e336dcd
FeatureExtractor/InceptionV2/Mixed_5c_1_Conv2d_3_1x1_128/Relu6: 3d418306
FeatureExtractor/InceptionV2/Mixed_5c_2_Conv2d_3_3x3_s2_256/Conv2D: 3e6c5823
FeatureExtractor/InceptionV2/Mixed_5c_2_Conv2d_3_3x3_s2_256/BatchNorm/FusedBatchNorm: 3e71cf53
FeatureExtractor/InceptionV2/Mixed_5c_2_Conv2d_3_3x3_s2_256/Relu6: 3d418306
BoxPredictor_3/BoxEncodingPredictor/Conv2D: 3d041e55
BoxPredictor_3/BoxEncodingPredictor/BiasAdd: 3d037db8
(Unnamed Layer* 435) [Shuffle]_output: 3d037db8
Squeeze_3: 3d037db8
FeatureExtractor/InceptionV2/Mixed_5c_1_Conv2d_4_1x1_128/Conv2D: 3d86a683
FeatureExtractor/InceptionV2/Mixed_5c_1_Conv2d_4_1x1_128/BatchNorm/FusedBatchNorm: 3d8a3ec6
FeatureExtractor/InceptionV2/Mixed_5c_1_Conv2d_4_1x1_128/Relu6: 3d418306
FeatureExtractor/InceptionV2/Mixed_5c_2_Conv2d_4_3x3_s2_256/Conv2D: 3dd7744e
FeatureExtractor/InceptionV2/Mixed_5c_2_Conv2d_4_3x3_s2_256/BatchNorm/FusedBatchNorm: 3dddc126
FeatureExtractor/InceptionV2/Mixed_5c_2_Conv2d_4_3x3_s2_256/Relu6: 3d418306
BoxPredictor_4/BoxEncodingPredictor/Conv2D: 3c9ef39a
BoxPredictor_4/BoxEncodingPredictor/BiasAdd: 3cd54867
(Unnamed Layer* 457) [Shuffle]_output: 3cd54867
Squeeze_4: 3cd54867
FeatureExtractor/InceptionV2/Mixed_5c_1_Conv2d_5_1x1_64/Conv2D: 3d7251b2
FeatureExtractor/InceptionV2/Mixed_5c_1_Conv2d_5_1x1_64/BatchNorm/FusedBatchNorm: 3d25136c
FeatureExtractor/InceptionV2/Mixed_5c_1_Conv2d_5_1x1_64/Relu6: 3d418306
FeatureExtractor/InceptionV2/Mixed_5c_2_Conv2d_5_3x3_s2_128/Conv2D: 3dcc69f7
FeatureExtractor/InceptionV2/Mixed_5c_2_Conv2d_5_3x3_s2_128/BatchNorm/FusedBatchNorm: 3da05bc2
FeatureExtractor/InceptionV2/Mixed_5c_2_Conv2d_5_3x3_s2_128/Relu6: 3d418306
BoxPredictor_5/BoxEncodingPredictor/Conv2D: 3cc8ebc9
BoxPredictor_5/BoxEncodingPredictor/BiasAdd: 3cec34cd
(Unnamed Layer* 479) [Shuffle]_output: 3cec34cd
Squeeze_5: 3cec34cd
concat_box_loc: 3de9da7b
GridAnchor: 3e4683ec
GridAnchor_1: 3e4683ec
GridAnchor_2: 3e4683ec
GridAnchor_3: 3e4683ec
GridAnchor_4: 3e4683ec
GridAnchor_5: 3e4683ec
concat_priorbox: 3e4683ec
BoxPredictor_0/ClassPredictor/Conv2D: 3e1622ea
BoxPredictor_0/ClassPredictor/BiasAdd: 3e274952
(Unnamed Layer* 496) [Shuffle]_output: 3e274952
BoxPredictor_0/Reshape_1: 3e274952
BoxPredictor_1/ClassPredictor/Conv2D: 3e0e1dce
BoxPredictor_1/ClassPredictor/BiasAdd: 3e164948
(Unnamed Layer* 504) [Shuffle]_output: 3e164948
BoxPredictor_1/Reshape_1: 3e164948
BoxPredictor_2/ClassPredictor/Conv2D: 3e0f68f5
BoxPredictor_2/ClassPredictor/BiasAdd: 3e1535d1
(Unnamed Layer* 512) [Shuffle]_output: 3e1535d1
BoxPredictor_2/Reshape_1: 3e1535d1
BoxPredictor_3/ClassPredictor/Conv2D: 3e0e3757
BoxPredictor_3/ClassPredictor/BiasAdd: 3e1793ef
(Unnamed Layer* 520) [Shuffle]_output: 3e1793ef
BoxPredictor_3/Reshape_1: 3e1793ef
BoxPredictor_4/ClassPredictor/Conv2D: 3e0c7f63
BoxPredictor_4/ClassPredictor/BiasAdd: 3e0d3d80
(Unnamed Layer* 528) [Shuffle]_output: 3e0d3d80
BoxPredictor_4/Reshape_1: 3e0d3d80
BoxPredictor_5/ClassPredictor/Conv2D: 3e18453b
BoxPredictor_5/ClassPredictor/BiasAdd: 3e11e110
(Unnamed Layer* 536) [Shuffle]_output: 3e11e110
BoxPredictor_5/Reshape_1: 3e11e110
concat_box_conf: 3e276171
NMS: 3f6c13a7
NMS_1: 30810204
